
const uint8_t model[] = {
    0x1c, 0x00, 0x00, 0x00, 0x54, 0x46, 0x4c, 0x33, 0x14, 0x00, 0x20, 0x00, 0x1c, 0x00, 0x18, 0x00, 0x14, 0x00, 0x10, 0x00, 0x0c, 0x00, 0x00, 0x00, 0x08, 0x00, 0x04, 0x00, 0x14, 0x00, 0x00, 0x00, 0x1c, 0x00, 0x00, 0x00, 0x8c, 0x00, 0x00, 0x00, 0xe4, 0x00, 0x00, 0x00, 0x50, 0x05, 0x00, 0x00, 0x60, 0x05, 0x00, 0x00, 0x04, 0x0b, 0x00, 0x00, 0x03, 0x00, 0x00, 0x00, 0x01, 0x00, 0x00, 0x00, 0x04, 0x00, 0x00, 0x00, 0x62, 0xfa, 0xff, 0xff, 0x0c, 0x00, 0x00, 0x00, 0x1c, 0x00, 0x00, 0x00, 0x3c, 0x00, 0x00, 0x00, 0x0f, 0x00, 0x00, 0x00, 0x73, 0x65, 0x72, 0x76, 0x69, 0x6e, 0x67, 0x5f, 0x64, 0x65, 0x66, 0x61, 0x75, 0x6c, 0x74, 0x00, 0x01, 0x00, 0x00, 0x00, 0x04, 0x00, 0x00, 0x00, 0x90, 0xff, 0xff, 0xff, 0x0a, 0x00, 0x00, 0x00, 0x04, 0x00, 0x00, 0x00, 0x08, 0x00, 0x00, 0x00, 0x6f, 0x75, 0x74, 0x70, 0x75, 0x74, 0x5f, 0x30, 0x00, 0x00, 0x00, 0x00, 0x01, 0x00, 0x00, 0x00, 0x04, 0x00, 0x00, 0x00, 0x52, 0xfb, 0xff, 0xff, 0x04, 0x00, 0x00, 0x00, 0x0f, 0x00, 0x00, 0x00, 0x6b, 0x65, 0x72, 0x61, 0x73, 0x5f, 0x74, 0x65, 0x6e, 0x73, 0x6f, 0x72, 0x5f, 0x33, 0x32, 0x00, 0x02, 0x00, 0x00, 0x00, 0x34, 0x00, 0x00, 0x00, 0x04, 0x00, 0x00, 0x00, 0xdc, 0xff, 0xff, 0xff, 0x0d, 0x00, 0x00, 0x00, 0x04, 0x00, 0x00, 0x00, 0x13, 0x00, 0x00, 0x00, 0x43, 0x4f, 0x4e, 0x56, 0x45, 0x52, 0x53, 0x49, 0x4f, 0x4e, 0x5f, 0x4d, 0x45, 0x54, 0x41, 0x44, 0x41, 0x54, 0x41, 0x00, 0x08, 0x00, 0x0c, 0x00, 0x08, 0x00, 0x04, 0x00, 0x08, 0x00, 0x00, 0x00, 0x0c, 0x00, 0x00, 0x00, 0x04, 0x00, 0x00, 0x00, 0x13, 0x00, 0x00, 0x00, 0x6d, 0x69, 0x6e, 0x5f, 0x72, 0x75, 0x6e, 0x74, 0x69, 0x6d, 0x65, 0x5f, 0x76, 0x65, 0x72, 0x73, 0x69, 0x6f, 0x6e, 0x00, 0x0e, 0x00, 0x00, 0x00, 0x68, 0x04, 0x00, 0x00, 0x60, 0x04, 0x00, 0x00, 0x30, 0x04, 0x00, 0x00, 0x18, 0x02, 0x00, 0x00, 0x04, 0x02, 0x00, 0x00, 0xd4, 0x01, 0x00, 0x00, 0x84, 0x01, 0x00, 0x00, 0xb4, 0x00, 0x00, 0x00, 0xac, 0x00, 0x00, 0x00, 0xa4, 0x00, 0x00, 0x00, 0x9c, 0x00, 0x00, 0x00, 0x94, 0x00, 0x00, 0x00, 0x74, 0x00, 0x00, 0x00, 0x04, 0x00, 0x00, 0x00, 0x06, 0xfc, 0xff, 0xff, 0x04, 0x00, 0x00, 0x00, 0x60, 0x00, 0x00, 0x00, 0x10, 0x00, 0x00, 0x00, 0x00, 0x00, 0x00, 0x00, 0x08, 0x00, 0x0e, 0x00, 0x08, 0x00, 0x04, 0x00, 0x08, 0x00, 0x00, 0x00, 0x10, 0x00, 0x00, 0x00, 0x24, 0x00, 0x00, 0x00, 0x00, 0x00, 0x06, 0x00, 0x08, 0x00, 0x04, 0x00, 0x06, 0x00, 0x00, 0x00, 0x04, 0x00, 0x00, 0x00, 0x00, 0x00, 0x00, 0x00, 0x0c, 0x00, 0x18, 0x00, 0x14, 0x00, 0x10, 0x00, 0x0c, 0x00, 0x04, 0x00, 0x0c, 0x00, 0x00, 0x00, 0x6f, 0x34, 0xb4, 0xe6, 0xbc, 0x5c, 0xfe, 0x7b, 0x02, 0x00, 0x00, 0x00, 0x02, 0x00, 0x00, 0x00, 0x04, 0x00, 0x00, 0x00, 0x06, 0x00, 0x00, 0x00, 0x32, 0x2e, 0x31, 0x38, 0x2e, 0x30, 0x00, 0x00, 0x72, 0xfc, 0xff, 0xff, 0x04, 0x00, 0x00, 0x00, 0x10, 0x00, 0x00, 0x00, 0x31, 0x2e, 0x31, 0x34, 0x2e, 0x30, 0x00, 0x00, 0x00, 0x00, 0x00, 0x00, 0x00, 0x00, 0x00, 0x00, 0xd4, 0xf6, 0xff, 0xff, 0xd8, 0xf6, 0xff, 0xff, 0xdc, 0xf6, 0xff, 0xff, 0xe0, 0xf6, 0xff, 0xff, 0x9e, 0xfc, 0xff, 0xff, 0x04, 0x00, 0x00, 0x00, 0xc0, 0x00, 0x00, 0x00, 0xe6, 0xa3, 0x21, 0xbd, 0x33, 0x82, 0x3c, 0xbd, 0xa3, 0xec, 0x73, 0x3f, 0x2f, 0x43, 0x00, 0x3f, 0xfe, 0x17, 0x6f, 0xbf, 0x93, 0x6b, 0x81, 0xbf, 0x11, 0xa7, 0x43, 0xbd, 0x60, 0x29, 0x68, 0x3c, 0xc7, 0x80, 0x68, 0x3f, 0x5e, 0x94, 0x75, 0x3e, 0xa4, 0x99, 0x34, 0xbf, 0x84, 0x55, 0xb5, 0x3e, 0x0d, 0x28, 0xa7, 0xbe, 0xd4, 0x0e, 0x4a, 0xbf, 0x12, 0x2a, 0x57, 0x3f, 0xfe, 0x12, 0xb2, 0x3d, 0x7c, 0xc9, 0xa4, 0xbf, 0x14, 0x93, 0x30, 0x3f, 0x0d, 0x55, 0x9a, 0xb9, 0xf9, 0xf1, 0xe4, 0xbd, 0xfa, 0x00, 0x53, 0xbf, 0xc3, 0xe1, 0x34, 0xbe, 0x2d, 0x4f, 0x8b, 0x3f, 0xde, 0x99, 0x2b, 0xbf, 0x06, 0x0a, 0xa0, 0x3e, 0x37, 0x3d, 0x91, 0xbd, 0x46, 0x40, 0x8f, 0xbf, 0x4e, 0xbb, 0x42, 0xbe, 0x5c, 0x08, 0xa8, 0xbe, 0x49, 0xb8, 0x77, 0x3f, 0xdd, 0x17, 0xa8, 0xbe, 0x95, 0x4b, 0xb5, 0xbe, 0x22, 0xcb, 0x87, 0xbf, 0xd9, 0xd5, 0xa2, 0xbe, 0xb1, 0xe8, 0x11, 0xbe, 0x58, 0x9f, 0x8d, 0x3f, 0x60, 0xe7, 0x4f, 0xbe, 0xdf, 0x42, 0x01, 0xbe, 0x2b, 0x9b, 0x64, 0xbf, 0x1d, 0xcb, 0xad, 0xbe, 0x5f, 0xa1, 0x2d, 0xbf, 0xac, 0x07, 0xe0, 0xbd, 0x5e, 0x4d, 0x28, 0xbf, 0x9b, 0x4b, 0x5b, 0x3f, 0xf8, 0x62, 0x8f, 0x3e, 0xb9, 0x54, 0x14, 0xbc, 0x59, 0xf0, 0xde, 0x3d, 0xe4, 0x39, 0x35, 0x3f, 0x6a, 0xfd, 0xff, 0xff, 0x04, 0x00, 0x00, 0x00, 0x40, 0x00, 0x00, 0x00, 0x9f, 0x84, 0xab, 0x3d, 0x3c, 0x58, 0x0c, 0x3f, 0xd8, 0x3e, 0x8d, 0x3d, 0x6b, 0xd3, 0x5d, 0x3e, 0x29, 0xa0, 0xd3, 0x3e, 0x20, 0x95, 0xa7, 0x3e, 0xc3, 0x71, 0xc5, 0xbd, 0x2c, 0xe6, 0x77, 0x3a, 0xd3, 0x9f, 0xa3, 0x3c, 0x2d, 0xe3, 0x2c, 0x3e, 0x40, 0xfd, 0x2f, 0xbe, 0x66, 0x3a, 0x1d, 0x3e, 0x93, 0x2c, 0x91, 0x3e, 0xf3, 0x98, 0x54, 0x3e, 0x07, 0x82, 0x49, 0x3e, 0x4a, 0x9a, 0x9e, 0x3d, 0xb6, 0xfd, 0xff, 0xff, 0x04, 0x00, 0x00, 0x00, 0x20, 0x00, 0x00, 0x00, 0x52, 0xd5, 0x47, 0x3c, 0xfe, 0x53, 0xf6, 0x3d, 0x06, 0x4f, 0xcd, 0xbc, 0xb2, 0x4c, 0xf9, 0x3d, 0xcf, 0xc8, 0x81, 0x3e, 0xad, 0x19, 0x5a, 0x3c, 0xf0, 0x94, 0x35, 0x3e, 0x2d, 0x7a, 0x93, 0x3e, 0xe2, 0xfd, 0xff, 0xff, 0x04, 0x00, 0x00, 0x00, 0x04, 0x00, 0x00, 0x00, 0xa4, 0x4b, 0x19, 0xbe, 0xf2, 0xfd, 0xff, 0xff, 0x04, 0x00, 0x00, 0x00, 0x00, 0x02, 0x00, 0x00, 0x8b, 0xdc, 0xf7, 0x3e, 0xbe, 0xb3, 0x90, 0xbf, 0x59, 0x60, 0x55, 0x3f, 0xf9, 0x85, 0xa4, 0xbe, 0x26, 0xc9, 0xca, 0x3e, 0x9f, 0xac, 0xee, 0x3d, 0x9c, 0xde, 0xe7, 0xb6, 0x4c, 0x55, 0xe6, 0xbe, 0x48, 0x9d, 0xc9, 0xbe, 0x34, 0x19, 0xb9, 0x3e, 0xff, 0x25, 0xeb, 0x3c, 0x78, 0x58, 0x26, 0x3f, 0xf6, 0x3b, 0xa0, 0x3c, 0x8e, 0x44, 0x88, 0x3e, 0x9f, 0xfa, 0x2a, 0x3e, 0x71, 0x6a, 0x34, 0x3f, 0xec, 0xf0, 0xfc, 0xbe, 0xb8, 0x9b, 0x96, 0xbd, 0x97, 0xa5, 0x1c, 0xbd, 0xed, 0xc8, 0x9d, 0xbe, 0x27, 0xc8, 0x4d, 0xbf, 0x9e, 0xdf, 0x0a, 0xbd, 0x97, 0x22, 0x37, 0xbe, 0x84, 0xd9, 0x9f, 0x3e, 0x30, 0x65, 0x2c, 0xbe, 0x8e, 0x60, 0x1a, 0xbf, 0x0d, 0x27, 0xf2, 0xbd, 0xf3, 0xa5, 0x12, 0xbd, 0x18, 0xd2, 0xd7, 0xbd, 0x9d, 0xad, 0x53, 0xbf, 0x94, 0xf1, 0x67, 0x3f, 0xbd, 0x57, 0xa8, 0x3e, 0x27, 0x1a, 0x1b, 0x3f, 0x7d, 0xe5, 0x0b, 0x3f, 0xac, 0xfd, 0x10, 0x3f, 0xd7, 0x0b, 0x33, 0xbf, 0x30, 0x8c, 0xb0, 0x3c, 0x52, 0x2b, 0xf7, 0xbe, 0x65, 0x77, 0x1a, 0x3f, 0x12, 0x81, 0x16, 0xbf, 0xb6, 0x2c, 0xb3, 0x3e, 0xdb, 0x41, 0x57, 0xbd, 0x29, 0x8b, 0x24, 0x3e, 0x93, 0xb7, 0xdd, 0x3e, 0xcb, 0x4c, 0xbe, 0x3e, 0xb2, 0x63, 0xe9, 0x3e, 0x6c, 0x8d, 0xb6, 0x3e, 0x19, 0xd8, 0xbc, 0x3e, 0xc4, 0xb4, 0x61, 0xbe, 0xb6, 0x8b, 0x41, 0x3f, 0xba, 0x6b, 0x7d, 0xbe, 0x28, 0xae, 0x60, 0xbe, 0xf0, 0x1d, 0xac, 0xbe, 0x03, 0x6f, 0x22, 0xbf, 0x35, 0x7f, 0x7e, 0x3f, 0x92, 0x2a, 0x86, 0x3e, 0xb5, 0x09, 0x34, 0x3f, 0xa5, 0x8a, 0x3a, 0xbf, 0x16, 0xab, 0x43, 0x3f, 0xf0, 0x4e, 0x4f, 0xbe, 0x0e, 0x93, 0x55, 0x3f, 0x6d, 0x16, 0x02, 0xbe, 0x69, 0x80, 0x11, 0xbf, 0xaa, 0xa8, 0x12, 0x3f, 0xf1, 0x4a, 0x5e, 0xbf, 0x05, 0xd3, 0xf6, 0x3e, 0xab, 0x21, 0x52, 0xbf, 0x24, 0xff, 0xe0, 0x3d, 0x01, 0x18, 0x53, 0xbe, 0x4b, 0x3e, 0xfe, 0x3e, 0xd7, 0x7f, 0x9c, 0xbf, 0x5e, 0x33, 0xfe, 0x3e, 0xa8, 0xcc, 0x50, 0xbf, 0xd0, 0xeb, 0x40, 0x3e, 0xd6, 0x12, 0x01, 0xbf, 0x1c, 0x52, 0x5a, 0x3e, 0x23, 0x0e, 0x08, 0x3e, 0xd5, 0xe3, 0x99, 0x3e, 0xbe, 0xc7, 0xfe, 0x3e, 0x2f, 0x76, 0x32, 0xbe, 0x5c, 0x69, 0x1a, 0x3f, 0xfd, 0xe1, 0x52, 0xbd, 0x82, 0xe8, 0x1d, 0x3f, 0x3e, 0xcf, 0x24, 0xbf, 0xbe, 0x1a, 0xbf, 0x3e, 0xb6, 0x10, 0xa9, 0xbe, 0x56, 0xbe, 0x99, 0x3f, 0x3e, 0x9e, 0x96, 0xbe, 0x9c, 0xe4, 0x18, 0x3f, 0x47, 0x7e, 0x35, 0x3f, 0x70, 0x81, 0x68, 0x3f, 0xcf, 0x94, 0x49, 0x3f, 0xba, 0x28, 0x1c, 0x3f, 0xbe, 0xa3, 0x78, 0x3e, 0x05, 0x20, 0x20, 0xbe, 0x7e, 0x54, 0x57, 0x3f, 0x67, 0x66, 0xf5, 0xbe, 0x1b, 0xad, 0x01, 0x3f, 0xbe, 0x14, 0x3c, 0xbf, 0xb2, 0x54, 0x57, 0x3f, 0x19, 0x5d, 0x36, 0x3f, 0xc7, 0xaa, 0x59, 0x3f, 0x64, 0x50, 0x8b, 0xbf, 0x50, 0x79, 0xbc, 0xbe, 0xb0, 0xc6, 0x00, 0xbf, 0x9d, 0x5f, 0xbd, 0xbd, 0xdd, 0xc8, 0x47, 0xbe, 0x85, 0xe0, 0xa6, 0x3d, 0x06, 0x39, 0x19, 0xbe, 0x31, 0xf4, 0x04, 0x3f, 0xaa, 0xbf, 0xad, 0xbe, 0x77, 0x4b, 0x29, 0xbf, 0x21, 0xba, 0x05, 0xbf, 0x2c, 0x85, 0x23, 0xbe, 0xaa, 0x32, 0x30, 0xbf, 0x94, 0x30, 0x87, 0x3e, 0x0a, 0xdd, 0x2b, 0x3e, 0x3c, 0xcd, 0x4d, 0x3f, 0x34, 0xa8, 0x11, 0xbf, 0x83, 0x4d, 0x36, 0x3f, 0x0d, 0x87, 0xfd, 0xbe, 0xf0, 0xa7, 0x09, 0xbf, 0xeb, 0x8f, 0x1b, 0xbf, 0x38, 0x4d, 0x18, 0xbe, 0x75, 0x41, 0xa4, 0x3e, 0xf7, 0x56, 0x17, 0x3e, 0x40, 0xd5, 0x97, 0x3e, 0xd2, 0xbf, 0x4f, 0xbc, 0x00, 0x00, 0x06, 0x00, 0x08, 0x00, 0x04, 0x00, 0x06, 0x00, 0x00, 0x00, 0x04, 0x00, 0x00, 0x00, 0x20, 0x00, 0x00, 0x00, 0x93, 0x9f, 0x9c, 0x3f, 0x28, 0x71, 0xcf, 0xbf, 0xac, 0x6b, 0x3c, 0x3f, 0xed, 0xbd, 0xb5, 0x3f, 0xbd, 0x5e, 0x72, 0xbf, 0x2f, 0x8d, 0x35, 0x3f, 0x82, 0xca, 0xbf, 0xbf, 0x36, 0x69, 0xa4, 0xbf, 0x78, 0xfa, 0xff, 0xff, 0x7c, 0xfa, 0xff, 0xff, 0x0f, 0x00, 0x00, 0x00, 0x4d, 0x4c, 0x49, 0x52, 0x20, 0x43, 0x6f, 0x6e, 0x76, 0x65, 0x72, 0x74, 0x65, 0x64, 0x2e, 0x00, 0x01, 0x00, 0x00, 0x00, 0x14, 0x00, 0x00, 0x00, 0x00, 0x00, 0x0e, 0x00, 0x18, 0x00, 0x14, 0x00, 0x10, 0x00, 0x0c, 0x00, 0x08, 0x00, 0x04, 0x00, 0x0e, 0x00, 0x00, 0x00, 0x14, 0x00, 0x00, 0x00, 0x1c, 0x00, 0x00, 0x00, 0x08, 0x01, 0x00, 0x00, 0x0c, 0x01, 0x00, 0x00, 0x10, 0x01, 0x00, 0x00, 0x04, 0x00, 0x00, 0x00, 0x6d, 0x61, 0x69, 0x6e, 0x00, 0x00, 0x00, 0x00, 0x04, 0x00, 0x00, 0x00, 0xb0, 0x00, 0x00, 0x00, 0x68, 0x00, 0x00, 0x00, 0x34, 0x00, 0x00, 0x00, 0x10, 0x00, 0x00, 0x00, 0x00, 0x00, 0x0a, 0x00, 0x10, 0x00, 0x0c, 0x00, 0x08, 0x00, 0x04, 0x00, 0x0a, 0x00, 0x00, 0x00, 0x0c, 0x00, 0x00, 0x00, 0x10, 0x00, 0x00, 0x00, 0x01, 0x00, 0x00, 0x00, 0x01, 0x00, 0x00, 0x00, 0x0a, 0x00, 0x00, 0x00, 0x01, 0x00, 0x00, 0x00, 0x09, 0x00, 0x00, 0x00, 0x9a, 0xff, 0xff, 0xff, 0x10, 0x00, 0x00, 0x00, 0x00, 0x00, 0x00, 0x08, 0x0c, 0x00, 0x00, 0x00, 0x10, 0x00, 0x00, 0x00, 0x24, 0xfb, 0xff, 0xff, 0x01, 0x00, 0x00, 0x00, 0x09, 0x00, 0x00, 0x00, 0x03, 0x00, 0x00, 0x00, 0x08, 0x00, 0x00, 0x00, 0x01, 0x00, 0x00, 0x00, 0x03, 0x00, 0x00, 0x00, 0xca, 0xff, 0xff, 0xff, 0x10, 0x00, 0x00, 0x00, 0x00, 0x00, 0x00, 0x08, 0x10, 0x00, 0x00, 0x00, 0x14, 0x00, 0x00, 0x00, 0xba, 0xff, 0xff, 0xff, 0x00, 0x00, 0x00, 0x01, 0x01, 0x00, 0x00, 0x00, 0x08, 0x00, 0x00, 0x00, 0x03, 0x00, 0x00, 0x00, 0x07, 0x00, 0x00, 0x00, 0x02, 0x00, 0x00, 0x00, 0x04, 0x00, 0x00, 0x00, 0x00, 0x00, 0x0e, 0x00, 0x16, 0x00, 0x00, 0x00, 0x10, 0x00, 0x0c, 0x00, 0x0b, 0x00, 0x04, 0x00, 0x0e, 0x00, 0x00, 0x00, 0x18, 0x00, 0x00, 0x00, 0x00, 0x00, 0x00, 0x08, 0x18, 0x00, 0x00, 0x00, 0x1c, 0x00, 0x00, 0x00, 0x00, 0x00, 0x06, 0x00, 0x08, 0x00, 0x07, 0x00, 0x06, 0x00, 0x00, 0x00, 0x00, 0x00, 0x00, 0x01, 0x01, 0x00, 0x00, 0x00, 0x07, 0x00, 0x00, 0x00, 0x03, 0x00, 0x00, 0x00, 0x00, 0x00, 0x00, 0x00, 0x06, 0x00, 0x00, 0x00, 0x05, 0x00, 0x00, 0x00, 0x01, 0x00, 0x00, 0x00, 0x0a, 0x00, 0x00, 0x00, 0x01, 0x00, 0x00, 0x00, 0x00, 0x00, 0x00, 0x00, 0x0b, 0x00, 0x00, 0x00, 0x04, 0x04, 0x00, 0x00, 0xac, 0x03, 0x00, 0x00, 0x54, 0x03, 0x00, 0x00, 0x18, 0x03, 0x00, 0x00, 0xdc, 0x02, 0x00, 0x00, 0x7c, 0x02, 0x00, 0x00, 0x28, 0x02, 0x00, 0x00, 0x84, 0x01, 0x00, 0x00, 0xe0, 0x00, 0x00, 0x00, 0x60, 0x00, 0x00, 0x00, 0x04, 0x00, 0x00, 0x00, 0x3e, 0xfc, 0xff, 0xff, 0x00, 0x00, 0x00, 0x01, 0x14, 0x00, 0x00, 0x00, 0x1c, 0x00, 0x00, 0x00, 0x1c, 0x00, 0x00, 0x00, 0x0b, 0x00, 0x00, 0x00, 0x34, 0x00, 0x00, 0x00, 0x02, 0x00, 0x00, 0x00, 0xff, 0xff, 0xff, 0xff, 0x01, 0x00, 0x00, 0x00, 0x28, 0xfc, 0xff, 0xff, 0x1b, 0x00, 0x00, 0x00, 0x53, 0x74, 0x61, 0x74, 0x65, 0x66, 0x75, 0x6c, 0x50, 0x61, 0x72, 0x74, 0x69, 0x74, 0x69, 0x6f, 0x6e, 0x65, 0x64, 0x43, 0x61, 0x6c, 0x6c, 0x5f, 0x31, 0x3a, 0x30, 0x00, 0x02, 0x00, 0x00, 0x00, 0x01, 0x00, 0x00, 0x00, 0x01, 0x00, 0x00, 0x00, 0x96, 0xfc, 0xff, 0xff, 0x00, 0x00, 0x00, 0x01, 0x14, 0x00, 0x00, 0x00, 0x1c, 0x00, 0x00, 0x00, 0x1c, 0x00, 0x00, 0x00, 0x0a, 0x00, 0x00, 0x00, 0x58, 0x00, 0x00, 0x00, 0x02, 0x00, 0x00, 0x00, 0xff, 0xff, 0xff, 0xff, 0x01, 0x00, 0x00, 0x00, 0x80, 0xfc, 0xff, 0xff, 0x3e, 0x00, 0x00, 0x00, 0x73, 0x65, 0x71, 0x75, 0x65, 0x6e, 0x74, 0x69, 0x61, 0x6c, 0x5f, 0x38, 0x5f, 0x31, 0x2f, 0x64, 0x65, 0x6e, 0x73, 0x65, 0x5f, 0x32, 0x36, 0x5f, 0x31, 0x2f, 0x4d, 0x61, 0x74, 0x4d, 0x75, 0x6c, 0x3b, 0x73, 0x65, 0x71, 0x75, 0x65, 0x6e, 0x74, 0x69, 0x61, 0x6c, 0x5f, 0x38, 0x5f, 0x31, 0x2f, 0x64, 0x65, 0x6e, 0x73, 0x65, 0x5f, 0x32, 0x36, 0x5f, 0x31, 0x2f, 0x41, 0x64, 0x64, 0x00, 0x00, 0x02, 0x00, 0x00, 0x00, 0x01, 0x00, 0x00, 0x00, 0x01, 0x00, 0x00, 0x00, 0x12, 0xfd, 0xff, 0xff, 0x00, 0x00, 0x00, 0x01, 0x14, 0x00, 0x00, 0x00, 0x1c, 0x00, 0x00, 0x00, 0x1c, 0x00, 0x00, 0x00, 0x09, 0x00, 0x00, 0x00, 0x7c, 0x00, 0x00, 0x00, 0x02, 0x00, 0x00, 0x00, 0xff, 0xff, 0xff, 0xff, 0x08, 0x00, 0x00, 0x00, 0xfc, 0xfc, 0xff, 0xff, 0x61, 0x00, 0x00, 0x00, 0x73, 0x65, 0x71, 0x75, 0x65, 0x6e, 0x74, 0x69, 0x61, 0x6c, 0x5f, 0x38, 0x5f, 0x31, 0x2f, 0x64, 0x65, 0x6e, 0x73, 0x65, 0x5f, 0x32, 0x35, 0x5f, 0x31, 0x2f, 0x4d, 0x61, 0x74, 0x4d, 0x75, 0x6c, 0x3b, 0x73, 0x65, 0x71, 0x75, 0x65, 0x6e, 0x74, 0x69, 0x61, 0x6c, 0x5f, 0x38, 0x5f, 0x31, 0x2f, 0x64, 0x65, 0x6e, 0x73, 0x65, 0x5f, 0x32, 0x35, 0x5f, 0x31, 0x2f, 0x52, 0x65, 0x6c, 0x75, 0x3b, 0x73, 0x65, 0x71, 0x75, 0x65, 0x6e, 0x74, 0x69, 0x61, 0x6c, 0x5f, 0x38, 0x5f, 0x31, 0x2f, 0x64, 0x65, 0x6e, 0x73, 0x65, 0x5f, 0x32, 0x35, 0x5f, 0x31, 0x2f, 0x42, 0x69, 0x61, 0x73, 0x41, 0x64, 0x64, 0x00, 0x00, 0x00, 0x02, 0x00, 0x00, 0x00, 0x01, 0x00, 0x00, 0x00, 0x08, 0x00, 0x00, 0x00, 0xb2, 0xfd, 0xff, 0xff, 0x00, 0x00, 0x00, 0x01, 0x14, 0x00, 0x00, 0x00, 0x1c, 0x00, 0x00, 0x00, 0x1c, 0x00, 0x00, 0x00, 0x08, 0x00, 0x00, 0x00, 0x7c, 0x00, 0x00, 0x00, 0x02, 0x00, 0x00, 0x00, 0xff, 0xff, 0xff, 0xff, 0x10, 0x00, 0x00, 0x00, 0x9c, 0xfd, 0xff, 0xff, 0x61, 0x00, 0x00, 0x00, 0x73, 0x65, 0x71, 0x75, 0x65, 0x6e, 0x74, 0x69, 0x61, 0x6c, 0x5f, 0x38, 0x5f, 0x31, 0x2f, 0x64, 0x65, 0x6e, 0x73, 0x65, 0x5f, 0x32, 0x34, 0x5f, 0x31, 0x2f, 0x4d, 0x61, 0x74, 0x4d, 0x75, 0x6c, 0x3b, 0x73, 0x65, 0x71, 0x75, 0x65, 0x6e, 0x74, 0x69, 0x61, 0x6c, 0x5f, 0x38, 0x5f, 0x31, 0x2f, 0x64, 0x65, 0x6e, 0x73, 0x65, 0x5f, 0x32, 0x34, 0x5f, 0x31, 0x2f, 0x52, 0x65, 0x6c, 0x75, 0x3b, 0x73, 0x65, 0x71, 0x75, 0x65, 0x6e, 0x74, 0x69, 0x61, 0x6c, 0x5f, 0x38, 0x5f, 0x31, 0x2f, 0x64, 0x65, 0x6e, 0x73, 0x65, 0x5f, 0x32, 0x34, 0x5f, 0x31, 0x2f, 0x42, 0x69, 0x61, 0x73, 0x41, 0x64, 0x64, 0x00, 0x00, 0x00, 0x02, 0x00, 0x00, 0x00, 0x01, 0x00, 0x00, 0x00, 0x10, 0x00, 0x00, 0x00, 0xa6, 0xfe, 0xff, 0xff, 0x00, 0x00, 0x00, 0x01, 0x10, 0x00, 0x00, 0x00, 0x10, 0x00, 0x00, 0x00, 0x07, 0x00, 0x00, 0x00, 0x30, 0x00, 0x00, 0x00, 0x2c, 0xfe, 0xff, 0xff, 0x20, 0x00, 0x00, 0x00, 0x73, 0x65, 0x71, 0x75, 0x65, 0x6e, 0x74, 0x69, 0x61, 0x6c, 0x5f, 0x38, 0x5f, 0x31, 0x2f, 0x64, 0x65, 0x6e, 0x73, 0x65, 0x5f, 0x32, 0x34, 0x5f, 0x31, 0x2f, 0x4d, 0x61, 0x74, 0x4d, 0x75, 0x6c, 0x00, 0x00, 0x00, 0x00, 0x02, 0x00, 0x00, 0x00, 0x10, 0x00, 0x00, 0x00, 0x03, 0x00, 0x00, 0x00, 0xf6, 0xfe, 0xff, 0xff, 0x00, 0x00, 0x00, 0x01, 0x10, 0x00, 0x00, 0x00, 0x10, 0x00, 0x00, 0x00, 0x06, 0x00, 0x00, 0x00, 0x40, 0x00, 0x00, 0x00, 0x7c, 0xfe, 0xff, 0xff, 0x30, 0x00, 0x00, 0x00, 0x73, 0x65, 0x71, 0x75, 0x65, 0x6e, 0x74, 0x69, 0x61, 0x6c, 0x5f, 0x38, 0x5f, 0x31, 0x2f, 0x64, 0x65, 0x6e, 0x73, 0x65, 0x5f, 0x32, 0x34, 0x5f, 0x31, 0x2f, 0x42, 0x69, 0x61, 0x73, 0x41, 0x64, 0x64, 0x2f, 0x52, 0x65, 0x61, 0x64, 0x56, 0x61, 0x72, 0x69, 0x61, 0x62, 0x6c, 0x65, 0x4f, 0x70, 0x00, 0x00, 0x00, 0x00, 0x01, 0x00, 0x00, 0x00, 0x10, 0x00, 0x00, 0x00, 0x52, 0xff, 0xff, 0xff, 0x00, 0x00, 0x00, 0x01, 0x10, 0x00, 0x00, 0x00, 0x10, 0x00, 0x00, 0x00, 0x05, 0x00, 0x00, 0x00, 0x1c, 0x00, 0x00, 0x00, 0xd8, 0xfe, 0xff, 0xff, 0x0f, 0x00, 0x00, 0x00, 0x61, 0x72, 0x69, 0x74, 0x68, 0x2e, 0x63, 0x6f, 0x6e, 0x73, 0x74, 0x61, 0x6e, 0x74, 0x33, 0x00, 0x01, 0x00, 0x00, 0x00, 0x08, 0x00, 0x00, 0x00, 0x8a, 0xff, 0xff, 0xff, 0x00, 0x00, 0x00, 0x01, 0x10, 0x00, 0x00, 0x00, 0x10, 0x00, 0x00, 0x00, 0x04, 0x00, 0x00, 0x00, 0x1c, 0x00, 0x00, 0x00, 0x10, 0xff, 0xff, 0xff, 0x0f, 0x00, 0x00, 0x00, 0x61, 0x72, 0x69, 0x74, 0x68, 0x2e, 0x63, 0x6f, 0x6e, 0x73, 0x74, 0x61, 0x6e, 0x74, 0x32, 0x00, 0x01, 0x00, 0x00, 0x00, 0x01, 0x00, 0x00, 0x00, 0xc2, 0xff, 0xff, 0xff, 0x00, 0x00, 0x00, 0x01, 0x10, 0x00, 0x00, 0x00, 0x10, 0x00, 0x00, 0x00, 0x03, 0x00, 0x00, 0x00, 0x1c, 0x00, 0x00, 0x00, 0x48, 0xff, 0xff, 0xff, 0x0f, 0x00, 0x00, 0x00, 0x61, 0x72, 0x69, 0x74, 0x68, 0x2e, 0x63, 0x6f, 0x6e, 0x73, 0x74, 0x61, 0x6e, 0x74, 0x31, 0x00, 0x02, 0x00, 0x00, 0x00, 0x08, 0x00, 0x00, 0x00, 0x10, 0x00, 0x00, 0x00, 0x00, 0x00, 0x16, 0x00, 0x18, 0x00, 0x14, 0x00, 0x00, 0x00, 0x10, 0x00, 0x0c, 0x00, 0x08, 0x00, 0x00, 0x00, 0x00, 0x00, 0x00, 0x00, 0x07, 0x00, 0x16, 0x00, 0x00, 0x00, 0x00, 0x00, 0x00, 0x01, 0x10, 0x00, 0x00, 0x00, 0x10, 0x00, 0x00, 0x00, 0x02, 0x00, 0x00, 0x00, 0x1c, 0x00, 0x00, 0x00, 0x9c, 0xff, 0xff, 0xff, 0x0e, 0x00, 0x00, 0x00, 0x61, 0x72, 0x69, 0x74, 0x68, 0x2e, 0x63, 0x6f, 0x6e, 0x73, 0x74, 0x61, 0x6e, 0x74, 0x00, 0x00, 0x02, 0x00, 0x00, 0x00, 0x01, 0x00, 0x00, 0x00, 0x08, 0x00, 0x00, 0x00, 0x00, 0x00, 0x16, 0x00, 0x1c, 0x00, 0x18, 0x00, 0x00, 0x00, 0x14, 0x00, 0x10, 0x00, 0x0c, 0x00, 0x00, 0x00, 0x00, 0x00, 0x08, 0x00, 0x07, 0x00, 0x16, 0x00, 0x00, 0x00, 0x00, 0x00, 0x00, 0x01, 0x14, 0x00, 0x00, 0x00, 0x20, 0x00, 0x00, 0x00, 0x20, 0x00, 0x00, 0x00, 0x01, 0x00, 0x00, 0x00, 0x40, 0x00, 0x00, 0x00, 0x02, 0x00, 0x00, 0x00, 0xff, 0xff, 0xff, 0xff, 0x03, 0x00, 0x00, 0x00, 0x04, 0x00, 0x04, 0x00, 0x04, 0x00, 0x00, 0x00, 0x21, 0x00, 0x00, 0x00, 0x73, 0x65, 0x72, 0x76, 0x69, 0x6e, 0x67, 0x5f, 0x64, 0x65, 0x66, 0x61, 0x75, 0x6c, 0x74, 0x5f, 0x6b, 0x65, 0x72, 0x61, 0x73, 0x5f, 0x74, 0x65, 0x6e, 0x73, 0x6f, 0x72, 0x5f, 0x33, 0x32, 0x3a, 0x30, 0x00, 0x00, 0x00, 0x02, 0x00, 0x00, 0x00, 0x01, 0x00, 0x00, 0x00, 0x03, 0x00, 0x00, 0x00, 0x02, 0x00, 0x00, 0x00, 0x20, 0x00, 0x00, 0x00, 0x04, 0x00, 0x00, 0x00, 0xf4, 0xff, 0xff, 0xff, 0x0e, 0x00, 0x00, 0x00, 0x00, 0x00, 0x00, 0x0e, 0x0c, 0x00, 0x0c, 0x00, 0x0b, 0x00, 0x00, 0x00, 0x00, 0x00, 0x04, 0x00, 0x0c, 0x00, 0x00, 0x00, 0x09, 0x00, 0x00, 0x00, 0x00, 0x00, 0x00, 0x09
};

